{
  "version": "1.0",
  "truncation": null,
  "padding": null,
  "added_tokens": [
    {
      "id": 0,
      "content": "<pad>",
      "single_word": false,
      "lstrip": false,
      "rstrip": false,
      "normalized": false,
      "special": true
    },
    {
      "id": 1,
      "content": "<s>",
      "single_word": false,
      "lstrip": false,
      "rstrip": false,
      "normalized": false,
      "special": true
    },
    {
      "id": 2,
      "content": "</s>",
      "single_word": false,
      "lstrip": false,
      "rstrip": false,
      "normalized": false,
      "special": true
    },
    {
      "id": 3,
      "content": "<unk>",
      "single_word": false,
      "lstrip": false,
      "rstrip": false,
      "normalized": false,
      "special": true
    }
  ],
  "normalizer": null,
  "pre_tokenizer": {
    "type": "Whitespace"
  },
  "post_processor": null,
  "decoder": null,
  "model": {
    "type": "BPE",
    "dropout": null,
    "unk_token": null,
    "continuing_subword_prefix": null,
    "end_of_word_suffix": null,
    "fuse_unk": false,
    "byte_fallback": false,
    "ignore_merges": false,
    "vocab": {
      "<pad>": 0,
      "<s>": 1,
      "</s>": 2,
      "<unk>": 3,
      "!": 4,
      "\"": 5,
      "#": 6,
      "$": 7,
      "&": 8,
      "'": 9,
      "(": 10,
      ")": 11,
      "*": 12,
      "+": 13,
      ",": 14,
      "-": 15,
      ".": 16,
      "/": 17,
      "0": 18,
      "1": 19,
      "2": 20,
      "3": 21,
      "4": 22,
      "5": 23,
      "6": 24,
      "7": 25,
      "8": 26,
      "9": 27,
      ":": 28,
      ";": 29,
      ">": 30,
      "?": 31,
      "@": 32,
      "A": 33,
      "B": 34,
      "C": 35,
      "D": 36,
      "E": 37,
      "F": 38,
      "G": 39,
      "H": 40,
      "I": 41,
      "J": 42,
      "K": 43,
      "L": 44,
      "M": 45,
      "N": 46,
      "O": 47,
      "P": 48,
      "Q": 49,
      "R": 50,
      "S": 51,
      "T": 52,
      "U": 53,
      "V": 54,
      "W": 55,
      "X": 56,
      "Y": 57,
      "Z": 58,
      "[": 59,
      "]": 60,
      "_": 61,
      "`": 62,
      "a": 63,
      "b": 64,
      "c": 65,
      "d": 66,
      "e": 67,
      "f": 68,
      "g": 69,
      "h": 70,
      "i": 71,
      "j": 72,
      "k": 73,
      "l": 74,
      "m": 75,
      "n": 76,
      "o": 77,
      "p": 78,
      "q": 79,
      "r": 80,
      "s": 81,
      "t": 82,
      "u": 83,
      "v": 84,
      "w": 85,
      "x": 86,
      "y": 87,
      "z": 88,
      "{": 89,
      "}": 90,
      "¡": 91,
      "à": 92,
      "é": 93,
      "–": 94,
      "—": 95,
      "’": 96,
      "☺": 97,
      "✨": 98,
      "️": 99,
      "🌟": 100,
      "👍": 101,
      "💡": 102,
      "💪": 103,
      "🔐": 104,
      "🔒": 105,
      "🗝": 106,
      "😊": 107,
      "🙁": 108,
      "🙏": 109,
      "🛡": 110,
      "🤗": 111,
      "🤝": 112,
      "ou": 113,
      "th": 114,
      "re": 115,
      "you": 116,
      "an": 117,
      "in": 118,
      "er": 119,
      "to": 120,
      "on": 121,
      "at": 122,
      "or": 123,
      "the": 124,
      "st": 125,
      "ss": 126,
      "ce": 127,
      "le": 128,
      "ing": 129,
      "en": 130,
      "ion": 131,
      "se": 132,
      "ro": 133,
      "your": 134,
      "de": 135,
      "it": 136,
      "ac": 137,
      "and": 138,
      "pro": 139,
      "wi": 140,
      "ed": 141,
      "he": 142,
      "for": 143,
      "ll": 144,
      "nt": 145,
      "cou": 146,
      "ve": 147,
      "vi": 148,
      "me": 149,
      "our": 150,
      "with": 151,
      "us": 152,
      "ur": 153,
      "ha": 154,
      "count": 155,
      "ate": 156,
      "is": 157,
      "ass": 158,
      "ic": 159,
      "}}": 160,
      "{{": 161,
      "tion": 162,
      "ation": 163,
      "pp": 164,
      "ar": 165,
      "su": 166,
      "ist": 167,
      "der": 168,
      "ent": 169,
      "can": 170,
      "ne": 171,
      "of": 172,
      "ow": 173,
      "assist": 174,
      "il": 175,
      "ay": 176,
      "any": 177,
      "if": 178,
      "al": 179,
      "cess": 180,
      "ab": 181,
      "un": 182,
      "ail": 183,
      "ge": 184,
      "ly": 185,
      "provi": 186,
      "that": 187,
      "mb": 188,
      "we": 189,
      "ue": 190,
      "ase": 191,
      "out": 192,
      "ad": 193,
      "provide": 194,
      "ple": 195,
      "co": 196,
      "pe": 197,
      "account": 198,
      "be": 199,
      "ort": 200,
      "here": 201,
      "form": 202,
      "sit": 203,
      "ct": 204,
      "con": 205,
      "mo": 206,
      "have": 207,
      "ance": 208,
      "mber": 209,
      "lp": 210,
      "fe": 211,
      "help": 212,
      "li": 213,
      "lo": 214,
      "ment": 215,
      "umber": 216,
      "inform": 217,
      "ld": 218,
      "te": 219,
      "gh": 220,
      "ke": 221,
      "ver": 222,
      "please": 223,
      "add": 224,
      "ex": 225,
      "ther": 226,
      "mp": 227,
      "ress": 228,
      "am": 229,
      "will": 230,
      "process": 231,
      "ch": 232,
      "ri": 233,
      "so": 234,
      "information": 235,
      "need": 236,
      "op": 237,
      "pport": 238,
      "mer": 239,
      "as": 240,
      "To": 241,
      "det": 242,
      "We": 243,
      "usto": 244,
      "Ac": 245,
      "ustomer": 246,
      "que": 247,
      "If": 248,
      "able": 249,
      "quest": 250,
      "are": 251,
      "ui": 252,
      "red": 253,
      "**": 254,
      "ails": 255,
      "ste": 256,
      "details": 257,
      "sure": 258,
      "Account": 259,
      "assistance": 260,
      "ien": 261,
      "cha": 262,
      "address": 263,
      "spe": 264,
      "per": 265,
      "ti": 266,
      "very": 267,
      "rou": 268,
      "this": 269,
      "es": 270,
      "ter": 271,
      "ience": 272,
      "up": 273,
      "ive": 274,
      "Number": 275,
      "ific": 276,
      "step": 277,
      "Th": 278,
      "hi": 279,
      "em": 280,
      "spec": 281,
      "stand": 282,
      "rough": 283,
      "through": 284,
      "order": 285,
      "Or": 286,
      "Order": 287,
      "option": 288,
      "ach": 289,
      "about": 290,
      "ref": 291,
      "ci": 292,
      "under": 293,
      "ction": 294,
      "all": 295,
      "ant": 296,
      "specific": 297,
      "ated": 298,
      "now": 299,
      "support": 300,
      "ould": 301,
      "know": 302,
      "ble": 303,
      "und": 304,
      "urcha": 305,
      "understand": 306,
      "bsit": 307,
      "ayment": 308,
      "bsite": 309,
      "reach": 310,
      "ensure": 311,
      "gui": 312,
      "ions": 313,
      "purcha": 314,
      "let": 315,
      "customer": 316,
      "com": 317,
      "do": 318,
      "urther": 319,
      "further": 320,
      "fi": 321,
      "ind": 322,
      "payment": 323,
      "}}.": 324,
      "ack": 325,
      "ake": 326,
      "purchase": 327,
      "pping": 328,
      "On": 329,
      "team": 330,
      "ard": 331,
      "wh": 332,
      "refund": 333,
      "iss": 334,
      "Re": 335,
      "ck": 336,
      "od": 337,
      "exper": 338,
      "si": 339,
      "ine": 340,
      "po": 341,
      "questions": 342,
      "cance": 343,
      "sol": 344,
      "ary": 345,
      "vice": 346,
      "issue": 347,
      "cur": 348,
      "ser": 349,
      "ul": 350,
      "iz": 351,
      "tr": 352,
      "na": 353,
      "heck": 354,
      "livery": 355,
      "et": 356,
      "hipping": 357,
      "action": 358,
      "ot": 359,
      "website": 360,
      "cl": 361,
      "app": 362,
      "check": 363,
      "Your": 364,
      "guide": 365,
      "more": 366,
      "ank": 367,
      "may": 368,
      "encount": 369,
      "gate": 370,
      "ok": 371,
      "Lo": 372,
      "oi": 373,
      "section": 374,
      "how": 375,
      "ity": 376,
      "dif": 377,
      "oice": 378,
      "llow": 379,
      "experience": 380,
      "el": 381,
      "uring": 382,
      "ick": 383,
      "ted": 384,
      "service": 385,
      ":**": 386,
      "number": 387,
      "ting": 388,
      "way": 389,
      "rom": 390,
      "log": 391,
      "one": 392,
      "wor": 393,
      "reci": 394,
      "du": 395,
      "age": 396,
      "ain": 397,
      "find": 398,
      "voice": 399,
      "could": 400,
      "ange": 401,
      "fo": 402,
      "back": 403,
      "Su": 404,
      "encounter": 405,
      "led": 406,
      "ype": 407,
      "In": 408,
      "duct": 409,
      "from": 410,
      "see": 411,
      "Thank": 412,
      "comp": 413,
      "resol": 414,
      "line": 415,
      "av": 416,
      "fic": 417,
      "delivery": 418,
      "im": 419,
      "new": 420,
      "don": 421,
      "make": 422,
      "cer": 423,
      "appreci": 424,
      "cessary": 425,
      "necessary": 426,
      "vigate": 427,
      "fre": 428,
      "my": 429,
      "gn": 430,
      "assu": 431,
      "Type": 432,
      "email": 433,
      "file": 434,
      "date": 435,
      "val": 436,
      "edback": 437,
      "comm": 438,
      "like": 439,
      "llation": 440,
      "steps": 441,
      "time": 442,
      "avail": 443,
      "product": 444,
      "This": 445,
      "rece": 446,
      "would": 447,
      "pri": 448,
      "shipping": 449,
      "Support": 450,
      "not": 451,
      "cont": 452,
      "ulti": 453,
      "ven": 454,
      "request": 455,
      "Once": 456,
      "available": 457,
      "feedback": 458,
      "ut": 459,
      "atis": 460,
      "free": 461,
      "ill": 462,
      "assured": 463,
      "ew": 464,
      "sub": 465,
      "concer": 466,
      "concern": 467,
      "reg": 468,
      "get": 469,
      "ving": 470,
      "sh": 471,
      "pl": 472,
      "ra": 473,
      "appreciate": 474,
      "Customer": 475,
      "satis": 476,
      "sc": 477,
      "promp": 478,
      "by": 479,
      "}}'": 480,
      "'{{": 481,
      "ef": 482,
      "ens": 483,
      "satisf": 484,
      "diffic": 485,
      "lease": 486,
      "Please": 487,
      "ru": 488,
      "set": 489,
      "want": 490,
      "art": 491,
      "these": 492,
      "Rest": 493,
      "ght": 494,
      "act": 495,
      "ulties": 496,
      "difficulties": 497,
      "ize": 498,
      "item": 499,
      "ded": 500,
      "ible": 501,
      "meth": 502,
      "accur": 503,
      "during": 504,
      "ry": 505,
      "ure": 506,
      "view": 507,
      "ding": 508,
      "rect": 509,
      "qui": 510,
      "invoice": 511,
      "feel": 512,
      "hesit": 513,
      "hesitate": 514,
      "most": 515,
      "every": 516,
      "concerns": 517,
      "user": 518,
      "Let": 519,
      "prompt": 520,
      "method": 521,
      "some": 522,
      "there": 523,
      "options": 524,
      "navigate": 525,
      "ition": 526,
      "scri": 527,
      "satisfaction": 528,
      "what": 529,
      "follow": 530,
      "cancel": 531,
      "less": 532,
      "oth": 533,
      "Na": 534,
      "smo": 535,
      "ify": 536,
      "such": 537,
      "The": 538,
      "You": 539,
      "fer": 540,
      "accurate": 541,
      "blem": 542,
      "problem": 543,
      "rest": 544,
      "imp": 545,
      "ag": 546,
      "ution": 547,
      "smooth": 548,
      "sign": 549,
      "dedic": 550,
      "amless": 551,
      "seamless": 552,
      "gor": 553,
      "happ": 554,
      "change": 555,
      "ategor": 556,
      "ges": 557,
      "atus": 558,
      "ategory": 559,
      "ating": 560,
      "Look": 561,
      "Category": 562,
      "hone": 563,
      "conven": 564,
      "itional": 565,
      "ally": 566,
      "access": 567,
      "dedicated": 568,
      "bill": 569,
      "king": 570,
      "look": 571,
      "Online": 572,
      "son": 573,
      "additional": 574,
      "Ch": 575,
      "status": 576,
      "comple": 577,
      "lic": 578,
      "news": 579,
      "Our": 580,
      "import": 581,
      "De": 582,
      "issues": 583,
      "where": 584,
      "loc": 585,
      "cancellation": 586,
      "fect": 587,
      "ours": 588,
      "pre": 589,
      "profile": 590,
      "Pro": 591,
      "use": 592,
      "subscri": 593,
      "happy": 594,
      "qu": 595,
      "Ad": 596,
      "Add": 597,
      "complete": 598,
      "letter": 599,
      "um": 600,
      "other": 601,
      "poss": 602,
      "tings": 603,
      "It": 604,
      "ption": 605,
      "rges": 606,
      "plat": 607,
      "end": 608,
      "newsletter": 609,
      "cor": 610,
      "lect": 611,
      "within": 612,
      "update": 613,
      "nter": 614,
      "imb": 615,
      "arding": 616,
      "imbur": 617,
      "reaching": 618,
      "err": 619,
      "reimbur": 620,
      "possible": 621,
      "fu": 622,
      "di": 623,
      "iti": 624,
      "methods": 625,
      "reimburse": 626,
      "own": 627,
      "visit": 628,
      "RL": 629,
      "URL": 630,
      "oo": 631,
      "gether": 632,
      "receive": 633,
      "error": 634,
      "pect": 635,
      "regarding": 636,
      "ations": 637,
      "reimbursement": 638,
      "work": 639,
      "commit": 640,
      "inst": 641,
      "ctions": 642,
      "ask": 643,
      "page": 644,
      "promptly": 645,
      "thing": 646,
      "contact": 647,
      "requi": 648,
      "pat": 649,
      "rent": 650,
      "should": 651,
      "Shipping": 652,
      "offer": 653,
      "bet": 654,
      "instru": 655,
      "ans": 656,
      "full": 657,
      "patience": 658,
      "situ": 659,
      "prior": 660,
      "resolving": 661,
      "take": 662,
      "platform": 663,
      "expect": 664,
      "instructions": 665,
      "allow": 666,
      "Inter": 667,
      "better": 668,
      "name": 669,
      "They": 670,
      "logg": 671,
      "convenience": 672,
      "vant": 673,
      "Interaction": 674,
      "down": 675,
      "Phone": 676,
      "committed": 677,
      "gra": 678,
      "no": 679,
      "ature": 680,
      "ient": 681,
      "ensuring": 682,
      "mat": 683,
      "ized": 684,
      "its": 685,
      "items": 686,
      "into": 687,
      "edit": 688,
      "Website": 689,
      "artic": 690,
      "fac": 691,
      "inte": 692,
      "go": 693,
      "recei": 694,
      "fir": 695,
      "polog": 696,
      "interest": 697,
      "best": 698,
      "Log": 699,
      "apolog": 700,
      "levant": 701,
      "dance": 702,
      "guidance": 703,
      "ong": 704,
      "arri": 705,
      "oper": 706,
      "apologize": 707,
      "ap": 708,
      "person": 709,
      "ith": 710,
      "tain": 711,
      "With": 712,
      "firm": 713,
      "valu": 714,
      "term": 715,
      "ren": 716,
      "matter": 717,
      "relevant": 718,
      "ma": 719,
      "Cance": 720,
      "priority": 721,
      "anything": 722,
      "ward": 723,
      "together": 724,
      "ast": 725,
      "wit": 726,
      "Hours": 727,
      "ered": 728,
      "ous": 729,
      "cre": 730,
      "proce": 731,
      "ir": 732,
      "ial": 733,
      "ich": 734,
      "ively": 735,
      "click": 736,
      "company": 737,
      "word": 738,
      "than": 739,
      "ount": 740,
      "Invoice": 741,
      "Cancellation": 742,
      "which": 743,
      "review": 744,
      "Fo": 745,
      "Follow": 746,
      "oci": 747,
      "Chat": 748,
      "ring": 749,
      "used": 750,
      "associ": 751,
      "sha": 752,
      "associated": 753,
      "polic": 754,
      "assword": 755,
      "ying": 756,
      "resolve": 757,
      "else": 758,
      "thor": 759,
      "Live": 760,
      "using": 761,
      "feature": 762,
      "ave": 763,
      "stim": 764,
      "Name": 765,
      "facing": 766,
      "exp": 767,
      "Pay": 768,
      "Address": 769,
      "proceed": 770,
      "list": 771,
      "cond": 772,
      "estim": 773,
      "inconvenience": 774,
      "Delivery": 775,
      "hear": 776,
      "witch": 777,
      "mit": 778,
      "ust": 779,
      "Per": 780,
      "clu": 781,
      "day": 782,
      "changes": 783,
      "quick": 784,
      "them": 785,
      "ential": 786,
      "direct": 787,
      "port": 788,
      "member": 789,
      "load": 790,
      "ty": 791,
      "services": 792,
      "\"{{": 793,
      "locate": 794,
      "cred": 795,
      "commend": 796,
      "important": 797,
      "products": 798,
      "Profile": 799,
      "article": 800,
      "Navigate": 801,
      "pen": 802,
      "ret": 803,
      "sti": 804,
      "appro": 805,
      "cep": 806,
      "inve": 807,
      "aim": 808,
      "bate": 809,
      "investi": 810,
      "grade": 811,
      "PI": 812,
      "report": 813,
      "hile": 814,
      "live": 815,
      "Could": 816,
      "ration": 817,
      "PIN": 818,
      "accep": 819,
      "res": 820,
      "inclu": 821,
      "vent": 822,
      "current": 823,
      "id": 824,
      "rebate": 825,
      "iness": 826,
      "Cl": 827,
      "He": 828,
      "ear": 829,
      "bus": 830,
      "business": 831,
      "Click": 832,
      "password": 833,
      "fully": 834,
      "correct": 835,
      "download": 836,
      "reco": 837,
      "valuable": 838,
      "needs": 839,
      "got": 840,
      "acy": 841,
      "}}\"": 842,
      "chat": 843,
      "itiate": 844,
      "ca": 845,
      "submit": 846,
      "rie": 847,
      "ies": 848,
      "recommend": 849,
      "checking": 850,
      "key": 851,
      "but": 852,
      "situation": 853,
      "iod": 854,
      "online": 855,
      "trans": 856,
      "require": 857,
      "Tr": 858,
      "ved": 859,
      "operation": 860,
      "top": 861,
      "value": 862,
      "utmost": 863,
      "retrie": 864,
      "charges": 865,
      "claim": 866,
      "investigate": 867,
      "cooperation": 868,
      "impro": 869,
      "ful": 870,
      "when": 871,
      "Con": 872,
      "cure": 873,
      "ak": 874,
      "gin": 875,
      "reat": 876,
      "secure": 877,
      "fund": 878,
      "confirm": 879,
      "Set": 880,
      "For": 881,
      "payments": 882,
      "oney": 883,
      "provided": 884,
      "mi": 885,
      "Settings": 886,
      "jo": 887,
      "looking": 888,
      "care": 889,
      "great": 890,
      "oose": 891,
      "reset": 892,
      "personal": 893,
      "conne": 894,
      "Here": 895,
      "mess": 896,
      "solution": 897,
      "importance": 898,
      "ious": 899,
      "money": 900,
      "message": 901,
      "eli": 902,
      "App": 903,
      "elig": 904,
      "There": 905,
      "refer": 906,
      "canceling": 907,
      "share": 908,
      "connect": 909,
      "uthor": 910,
      "regist": 911,
      "completely": 912,
      "settings": 913,
      "ten": 914,
      "right": 915,
      "Up": 916,
      "enter": 917,
      "Remember": 918,
      "acking": 919,
      "curity": 920,
      "arted": 921,
      "understanding": 922,
      "estimated": 923,
      "tore": 924,
      "aint": 925,
      "modif": 926,
      "rence": 927,
      "Se": 928,
      "ference": 929,
      "sy": 930,
      "started": 931,
      "compl": 932,
      "upd": 933,
      "How": 934,
      "switch": 935,
      "complaint": 936,
      "Co": 937,
      "subscription": 938,
      "logged": 939,
      "joy": 940,
      "stem": 941,
      "system": 942,
      "eligible": 943,
      "Cha": 944,
      "problems": 945,
      "effect": 946,
      "Charges": 947,
      "card": 948,
      "security": 949,
      "improve": 950,
      "sim": 951,
      "ative": 952,
      "rust": 953,
      "agent": 954,
      "ace": 955,
      "throughout": 956,
      "select": 957,
      "Refund": 958,
      "frust": 959,
      "St": 960,
      "seeking": 961,
      "case": 962,
      "caused": 963,
      "code": 964,
      "while": 965,
      "ination": 966,
      "enef": 967,
      "resolution": 968,
      "indly": 969,
      "desi": 970,
      "encountered": 971,
      "arrive": 972,
      "wards": 973,
      "enefits": 974,
      "ments": 975,
      "prefer": 976,
      "including": 977,
      "contac": 978,
      "Ex": 979,
      "enable": 980,
      "rouble": 981,
      "compens": 982,
      "priate": 983,
      "appropriate": 984,
      "Fe": 985,
      "lab": 986,
      "benefits": 987,
      "towards": 988,
      "ol": 989,
      "providing": 990,
      "notify": 991,
      "sho": 992,
      "mind": 993,
      "eled": 994,
      "labeled": 995,
      "trouble": 996,
      "Loc": 997,
      "remo": 998,
      "iled": 999,
      "Apple": 1000,
      "meet": 1001,
      "Upgrade": 1002,
      "ailed": 1003,
      "directly": 1004,
      "policy": 1005,
      "sent": 1006,
      "ghts": 1007,
      "tention": 1008,
      "deli": 1009,
      "shi": 1010,
      "open": 1011,
      "range": 1012,
      "effic": 1013,
      "standard": 1014,
      "Person": 1015,
      "}}?": 1016,
      "ts": 1017,
      "ident": 1018,
      "detailed": 1019,
      "bring": 1020,
      "efficient": 1021,
      "ney": 1022,
      "Am": 1023
    },
    "merges": [
      [
        "o",
        "u"
      ],
      [
        "t",
        "h"
      ],
      [
        "r",
        "e"
      ],
      [
        "y",
        "ou"
      ],
      [
        "a",
        "n"
      ],
      [
        "i",
        "n"
      ],
      [
        "e",
        "r"
      ],
      [
        "t",
        "o"
      ],
      [
        "o",
        "n"
      ],
      [
        "a",
        "t"
      ],
      [
        "o",
        "r"
      ],
      [
        "th",
        "e"
      ],
      [
        "s",
        "t"
      ],
      [
        "s",
        "s"
      ],
      [
        "c",
        "e"
      ],
      [
        "l",
        "e"
      ],
      [
        "in",
        "g"
      ],
      [
        "e",
        "n"
      ],
      [
        "i",
        "on"
      ],
      [
        "s",
        "e"
      ],
      [
        "r",
        "o"
      ],
      [
        "you",
        "r"
      ],
      [
        "d",
        "e"
      ],
      [
        "i",
        "t"
      ],
      [
        "a",
        "c"
      ],
      [
        "an",
        "d"
      ],
      [
        "p",
        "ro"
      ],
      [
        "w",
        "i"
      ],
      [
        "e",
        "d"
      ],
      [
        "h",
        "e"
      ],
      [
        "f",
        "or"
      ],
      [
        "l",
        "l"
      ],
      [
        "n",
        "t"
      ],
      [
        "c",
        "ou"
      ],
      [
        "v",
        "e"
      ],
      [
        "v",
        "i"
      ],
      [
        "m",
        "e"
      ],
      [
        "ou",
        "r"
      ],
      [
        "wi",
        "th"
      ],
      [
        "u",
        "s"
      ],
      [
        "u",
        "r"
      ],
      [
        "h",
        "a"
      ],
      [
        "cou",
        "nt"
      ],
      [
        "at",
        "e"
      ],
      [
        "i",
        "s"
      ],
      [
        "a",
        "ss"
      ],
      [
        "i",
        "c"
      ],
      [
        "}",
        "}"
      ],
      [
        "{",
        "{"
      ],
      [
        "t",
        "ion"
      ],
      [
        "at",
        "ion"
      ],
      [
        "p",
        "p"
      ],
      [
        "a",
        "r"
      ],
      [
        "s",
        "u"
      ],
      [
        "i",
        "st"
      ],
      [
        "d",
        "er"
      ],
      [
        "en",
        "t"
      ],
      [
        "c",
        "an"
      ],
      [
        "n",
        "e"
      ],
      [
        "o",
        "f"
      ],
      [
        "o",
        "w"
      ],
      [
        "ass",
        "ist"
      ],
      [
        "i",
        "l"
      ],
      [
        "a",
        "y"
      ],
      [
        "an",
        "y"
      ],
      [
        "i",
        "f"
      ],
      [
        "a",
        "l"
      ],
      [
        "ce",
        "ss"
      ],
      [
        "a",
        "b"
      ],
      [
        "u",
        "n"
      ],
      [
        "a",
        "il"
      ],
      [
        "g",
        "e"
      ],
      [
        "l",
        "y"
      ],
      [
        "pro",
        "vi"
      ],
      [
        "th",
        "at"
      ],
      [
        "m",
        "b"
      ],
      [
        "w",
        "e"
      ],
      [
        "u",
        "e"
      ],
      [
        "a",
        "se"
      ],
      [
        "ou",
        "t"
      ],
      [
        "a",
        "d"
      ],
      [
        "provi",
        "de"
      ],
      [
        "p",
        "le"
      ],
      [
        "c",
        "o"
      ],
      [
        "p",
        "e"
      ],
      [
        "ac",
        "count"
      ],
      [
        "b",
        "e"
      ],
      [
        "or",
        "t"
      ],
      [
        "he",
        "re"
      ],
      [
        "for",
        "m"
      ],
      [
        "s",
        "it"
      ],
      [
        "c",
        "t"
      ],
      [
        "c",
        "on"
      ],
      [
        "m",
        "o"
      ],
      [
        "ha",
        "ve"
      ],
      [
        "an",
        "ce"
      ],
      [
        "mb",
        "er"
      ],
      [
        "l",
        "p"
      ],
      [
        "f",
        "e"
      ],
      [
        "he",
        "lp"
      ],
      [
        "l",
        "i"
      ],
      [
        "l",
        "o"
      ],
      [
        "m",
        "ent"
      ],
      [
        "u",
        "mber"
      ],
      [
        "in",
        "form"
      ],
      [
        "l",
        "d"
      ],
      [
        "t",
        "e"
      ],
      [
        "g",
        "h"
      ],
      [
        "k",
        "e"
      ],
      [
        "v",
        "er"
      ],
      [
        "ple",
        "ase"
      ],
      [
        "ad",
        "d"
      ],
      [
        "e",
        "x"
      ],
      [
        "th",
        "er"
      ],
      [
        "m",
        "p"
      ],
      [
        "re",
        "ss"
      ],
      [
        "a",
        "m"
      ],
      [
        "wi",
        "ll"
      ],
      [
        "pro",
        "cess"
      ],
      [
        "c",
        "h"
      ],
      [
        "r",
        "i"
      ],
      [
        "s",
        "o"
      ],
      [
        "inform",
        "ation"
      ],
      [
        "ne",
        "ed"
      ],
      [
        "o",
        "p"
      ],
      [
        "pp",
        "ort"
      ],
      [
        "m",
        "er"
      ],
      [
        "a",
        "s"
      ],
      [
        "T",
        "o"
      ],
      [
        "de",
        "t"
      ],
      [
        "W",
        "e"
      ],
      [
        "us",
        "to"
      ],
      [
        "A",
        "c"
      ],
      [
        "usto",
        "mer"
      ],
      [
        "q",
        "ue"
      ],
      [
        "I",
        "f"
      ],
      [
        "ab",
        "le"
      ],
      [
        "que",
        "st"
      ],
      [
        "a",
        "re"
      ],
      [
        "u",
        "i"
      ],
      [
        "re",
        "d"
      ],
      [
        "*",
        "*"
      ],
      [
        "ail",
        "s"
      ],
      [
        "st",
        "e"
      ],
      [
        "det",
        "ails"
      ],
      [
        "su",
        "re"
      ],
      [
        "Ac",
        "count"
      ],
      [
        "assist",
        "ance"
      ],
      [
        "i",
        "en"
      ],
      [
        "c",
        "ha"
      ],
      [
        "add",
        "ress"
      ],
      [
        "s",
        "pe"
      ],
      [
        "p",
        "er"
      ],
      [
        "t",
        "i"
      ],
      [
        "ver",
        "y"
      ],
      [
        "r",
        "ou"
      ],
      [
        "th",
        "is"
      ],
      [
        "e",
        "s"
      ],
      [
        "t",
        "er"
      ],
      [
        "ien",
        "ce"
      ],
      [
        "u",
        "p"
      ],
      [
        "i",
        "ve"
      ],
      [
        "N",
        "umber"
      ],
      [
        "if",
        "ic"
      ],
      [
        "ste",
        "p"
      ],
      [
        "T",
        "h"
      ],
      [
        "h",
        "i"
      ],
      [
        "e",
        "m"
      ],
      [
        "spe",
        "c"
      ],
      [
        "st",
        "and"
      ],
      [
        "rou",
        "gh"
      ],
      [
        "th",
        "rough"
      ],
      [
        "or",
        "der"
      ],
      [
        "O",
        "r"
      ],
      [
        "Or",
        "der"
      ],
      [
        "op",
        "tion"
      ],
      [
        "ac",
        "h"
      ],
      [
        "ab",
        "out"
      ],
      [
        "re",
        "f"
      ],
      [
        "c",
        "i"
      ],
      [
        "un",
        "der"
      ],
      [
        "c",
        "tion"
      ],
      [
        "a",
        "ll"
      ],
      [
        "an",
        "t"
      ],
      [
        "spec",
        "ific"
      ],
      [
        "at",
        "ed"
      ],
      [
        "n",
        "ow"
      ],
      [
        "su",
        "pport"
      ],
      [
        "ou",
        "ld"
      ],
      [
        "k",
        "now"
      ],
      [
        "b",
        "le"
      ],
      [
        "un",
        "d"
      ],
      [
        "ur",
        "cha"
      ],
      [
        "under",
        "stand"
      ],
      [
        "b",
        "sit"
      ],
      [
        "ay",
        "ment"
      ],
      [
        "bsit",
        "e"
      ],
      [
        "re",
        "ach"
      ],
      [
        "en",
        "sure"
      ],
      [
        "g",
        "ui"
      ],
      [
        "ion",
        "s"
      ],
      [
        "p",
        "urcha"
      ],
      [
        "le",
        "t"
      ],
      [
        "c",
        "ustomer"
      ],
      [
        "co",
        "m"
      ],
      [
        "d",
        "o"
      ],
      [
        "ur",
        "ther"
      ],
      [
        "f",
        "urther"
      ],
      [
        "f",
        "i"
      ],
      [
        "in",
        "d"
      ],
      [
        "p",
        "ayment"
      ],
      [
        "}}",
        "."
      ],
      [
        "ac",
        "k"
      ],
      [
        "a",
        "ke"
      ],
      [
        "purcha",
        "se"
      ],
      [
        "pp",
        "ing"
      ],
      [
        "O",
        "n"
      ],
      [
        "te",
        "am"
      ],
      [
        "ar",
        "d"
      ],
      [
        "w",
        "h"
      ],
      [
        "ref",
        "und"
      ],
      [
        "i",
        "ss"
      ],
      [
        "R",
        "e"
      ],
      [
        "c",
        "k"
      ],
      [
        "o",
        "d"
      ],
      [
        "ex",
        "per"
      ],
      [
        "s",
        "i"
      ],
      [
        "in",
        "e"
      ],
      [
        "p",
        "o"
      ],
      [
        "quest",
        "ions"
      ],
      [
        "can",
        "ce"
      ],
      [
        "so",
        "l"
      ],
      [
        "ar",
        "y"
      ],
      [
        "vi",
        "ce"
      ],
      [
        "iss",
        "ue"
      ],
      [
        "c",
        "ur"
      ],
      [
        "s",
        "er"
      ],
      [
        "u",
        "l"
      ],
      [
        "i",
        "z"
      ],
      [
        "t",
        "r"
      ],
      [
        "n",
        "a"
      ],
      [
        "he",
        "ck"
      ],
      [
        "li",
        "very"
      ],
      [
        "e",
        "t"
      ],
      [
        "hi",
        "pping"
      ],
      [
        "ac",
        "tion"
      ],
      [
        "o",
        "t"
      ],
      [
        "we",
        "bsite"
      ],
      [
        "c",
        "l"
      ],
      [
        "a",
        "pp"
      ],
      [
        "c",
        "heck"
      ],
      [
        "Y",
        "our"
      ],
      [
        "gui",
        "de"
      ],
      [
        "mo",
        "re"
      ],
      [
        "an",
        "k"
      ],
      [
        "m",
        "ay"
      ],
      [
        "en",
        "count"
      ],
      [
        "g",
        "ate"
      ],
      [
        "o",
        "k"
      ],
      [
        "L",
        "o"
      ],
      [
        "o",
        "i"
      ],
      [
        "se",
        "ction"
      ],
      [
        "h",
        "ow"
      ],
      [
        "it",
        "y"
      ],
      [
        "d",
        "if"
      ],
      [
        "oi",
        "ce"
      ],
      [
        "ll",
        "ow"
      ],
      [
        "exper",
        "ience"
      ],
      [
        "e",
        "l"
      ],
      [
        "ur",
        "ing"
      ],
      [
        "ic",
        "k"
      ],
      [
        "t",
        "ed"
      ],
      [
        "ser",
        "vice"
      ],
      [
        ":",
        "**"
      ],
      [
        "n",
        "umber"
      ],
      [
        "t",
        "ing"
      ],
      [
        "w",
        "ay"
      ],
      [
        "ro",
        "m"
      ],
      [
        "lo",
        "g"
      ],
      [
        "on",
        "e"
      ],
      [
        "w",
        "or"
      ],
      [
        "re",
        "ci"
      ],
      [
        "d",
        "u"
      ],
      [
        "a",
        "ge"
      ],
      [
        "a",
        "in"
      ],
      [
        "f",
        "ind"
      ],
      [
        "v",
        "oice"
      ],
      [
        "cou",
        "ld"
      ],
      [
        "an",
        "ge"
      ],
      [
        "f",
        "o"
      ],
      [
        "b",
        "ack"
      ],
      [
        "S",
        "u"
      ],
      [
        "encount",
        "er"
      ],
      [
        "le",
        "d"
      ],
      [
        "y",
        "pe"
      ],
      [
        "I",
        "n"
      ],
      [
        "du",
        "ct"
      ],
      [
        "f",
        "rom"
      ],
      [
        "se",
        "e"
      ],
      [
        "Th",
        "ank"
      ],
      [
        "co",
        "mp"
      ],
      [
        "re",
        "sol"
      ],
      [
        "l",
        "ine"
      ],
      [
        "a",
        "v"
      ],
      [
        "f",
        "ic"
      ],
      [
        "de",
        "livery"
      ],
      [
        "i",
        "m"
      ],
      [
        "ne",
        "w"
      ],
      [
        "d",
        "on"
      ],
      [
        "m",
        "ake"
      ],
      [
        "c",
        "er"
      ],
      [
        "app",
        "reci"
      ],
      [
        "cess",
        "ary"
      ],
      [
        "ne",
        "cessary"
      ],
      [
        "vi",
        "gate"
      ],
      [
        "f",
        "re"
      ],
      [
        "m",
        "y"
      ],
      [
        "g",
        "n"
      ],
      [
        "ass",
        "u"
      ],
      [
        "T",
        "ype"
      ],
      [
        "em",
        "ail"
      ],
      [
        "fi",
        "le"
      ],
      [
        "d",
        "ate"
      ],
      [
        "v",
        "al"
      ],
      [
        "ed",
        "back"
      ],
      [
        "com",
        "m"
      ],
      [
        "li",
        "ke"
      ],
      [
        "ll",
        "ation"
      ],
      [
        "step",
        "s"
      ],
      [
        "ti",
        "me"
      ],
      [
        "av",
        "ail"
      ],
      [
        "pro",
        "duct"
      ],
      [
        "Th",
        "is"
      ],
      [
        "re",
        "ce"
      ],
      [
        "w",
        "ould"
      ],
      [
        "p",
        "ri"
      ],
      [
        "s",
        "hipping"
      ],
      [
        "Su",
        "pport"
      ],
      [
        "n",
        "ot"
      ],
      [
        "con",
        "t"
      ],
      [
        "ul",
        "ti"
      ],
      [
        "v",
        "en"
      ],
      [
        "re",
        "quest"
      ],
      [
        "On",
        "ce"
      ],
      [
        "avail",
        "able"
      ],
      [
        "fe",
        "edback"
      ],
      [
        "u",
        "t"
      ],
      [
        "at",
        "is"
      ],
      [
        "fre",
        "e"
      ],
      [
        "i",
        "ll"
      ],
      [
        "assu",
        "red"
      ],
      [
        "e",
        "w"
      ],
      [
        "su",
        "b"
      ],
      [
        "con",
        "cer"
      ],
      [
        "concer",
        "n"
      ],
      [
        "re",
        "g"
      ],
      [
        "ge",
        "t"
      ],
      [
        "v",
        "ing"
      ],
      [
        "s",
        "h"
      ],
      [
        "p",
        "l"
      ],
      [
        "r",
        "a"
      ],
      [
        "appreci",
        "ate"
      ],
      [
        "C",
        "ustomer"
      ],
      [
        "s",
        "atis"
      ],
      [
        "s",
        "c"
      ],
      [
        "pro",
        "mp"
      ],
      [
        "b",
        "y"
      ],
      [
        "}}",
        "'"
      ],
      [
        "'",
        "{{"
      ],
      [
        "e",
        "f"
      ],
      [
        "en",
        "s"
      ],
      [
        "satis",
        "f"
      ],
      [
        "dif",
        "fic"
      ],
      [
        "le",
        "ase"
      ],
      [
        "P",
        "lease"
      ],
      [
        "r",
        "u"
      ],
      [
        "se",
        "t"
      ],
      [
        "w",
        "ant"
      ],
      [
        "ar",
        "t"
      ],
      [
        "the",
        "se"
      ],
      [
        "Re",
        "st"
      ],
      [
        "gh",
        "t"
      ],
      [
        "ac",
        "t"
      ],
      [
        "ulti",
        "es"
      ],
      [
        "diffic",
        "ulties"
      ],
      [
        "iz",
        "e"
      ],
      [
        "it",
        "em"
      ],
      [
        "de",
        "d"
      ],
      [
        "i",
        "ble"
      ],
      [
        "me",
        "th"
      ],
      [
        "ac",
        "cur"
      ],
      [
        "d",
        "uring"
      ],
      [
        "r",
        "y"
      ],
      [
        "u",
        "re"
      ],
      [
        "vi",
        "ew"
      ],
      [
        "d",
        "ing"
      ],
      [
        "re",
        "ct"
      ],
      [
        "q",
        "ui"
      ],
      [
        "in",
        "voice"
      ],
      [
        "fe",
        "el"
      ],
      [
        "he",
        "sit"
      ],
      [
        "hesit",
        "ate"
      ],
      [
        "mo",
        "st"
      ],
      [
        "e",
        "very"
      ],
      [
        "concern",
        "s"
      ],
      [
        "us",
        "er"
      ],
      [
        "L",
        "et"
      ],
      [
        "promp",
        "t"
      ],
      [
        "meth",
        "od"
      ],
      [
        "so",
        "me"
      ],
      [
        "the",
        "re"
      ],
      [
        "option",
        "s"
      ],
      [
        "na",
        "vigate"
      ],
      [
        "it",
        "ion"
      ],
      [
        "sc",
        "ri"
      ],
      [
        "satisf",
        "action"
      ],
      [
        "wh",
        "at"
      ],
      [
        "fo",
        "llow"
      ],
      [
        "cance",
        "l"
      ],
      [
        "le",
        "ss"
      ],
      [
        "o",
        "th"
      ],
      [
        "N",
        "a"
      ],
      [
        "s",
        "mo"
      ],
      [
        "if",
        "y"
      ],
      [
        "su",
        "ch"
      ],
      [
        "T",
        "he"
      ],
      [
        "Y",
        "ou"
      ],
      [
        "f",
        "er"
      ],
      [
        "accur",
        "ate"
      ],
      [
        "ble",
        "m"
      ],
      [
        "pro",
        "blem"
      ],
      [
        "re",
        "st"
      ],
      [
        "i",
        "mp"
      ],
      [
        "a",
        "g"
      ],
      [
        "u",
        "tion"
      ],
      [
        "smo",
        "oth"
      ],
      [
        "si",
        "gn"
      ],
      [
        "ded",
        "ic"
      ],
      [
        "am",
        "less"
      ],
      [
        "se",
        "amless"
      ],
      [
        "g",
        "or"
      ],
      [
        "ha",
        "pp"
      ],
      [
        "ch",
        "ange"
      ],
      [
        "ate",
        "gor"
      ],
      [
        "ge",
        "s"
      ],
      [
        "at",
        "us"
      ],
      [
        "ategor",
        "y"
      ],
      [
        "at",
        "ing"
      ],
      [
        "Lo",
        "ok"
      ],
      [
        "C",
        "ategory"
      ],
      [
        "h",
        "one"
      ],
      [
        "con",
        "ven"
      ],
      [
        "ition",
        "al"
      ],
      [
        "all",
        "y"
      ],
      [
        "ac",
        "cess"
      ],
      [
        "dedic",
        "ated"
      ],
      [
        "b",
        "ill"
      ],
      [
        "k",
        "ing"
      ],
      [
        "lo",
        "ok"
      ],
      [
        "On",
        "line"
      ],
      [
        "s",
        "on"
      ],
      [
        "add",
        "itional"
      ],
      [
        "C",
        "h"
      ],
      [
        "st",
        "atus"
      ],
      [
        "com",
        "ple"
      ],
      [
        "l",
        "ic"
      ],
      [
        "new",
        "s"
      ],
      [
        "O",
        "ur"
      ],
      [
        "imp",
        "ort"
      ],
      [
        "D",
        "e"
      ],
      [
        "issue",
        "s"
      ],
      [
        "w",
        "here"
      ],
      [
        "lo",
        "c"
      ],
      [
        "cance",
        "llation"
      ],
      [
        "fe",
        "ct"
      ],
      [
        "our",
        "s"
      ],
      [
        "p",
        "re"
      ],
      [
        "pro",
        "file"
      ],
      [
        "P",
        "ro"
      ],
      [
        "u",
        "se"
      ],
      [
        "sub",
        "scri"
      ],
      [
        "happ",
        "y"
      ],
      [
        "q",
        "u"
      ],
      [
        "A",
        "d"
      ],
      [
        "Ad",
        "d"
      ],
      [
        "comple",
        "te"
      ],
      [
        "let",
        "ter"
      ],
      [
        "u",
        "m"
      ],
      [
        "o",
        "ther"
      ],
      [
        "po",
        "ss"
      ],
      [
        "ting",
        "s"
      ],
      [
        "I",
        "t"
      ],
      [
        "p",
        "tion"
      ],
      [
        "r",
        "ges"
      ],
      [
        "pl",
        "at"
      ],
      [
        "en",
        "d"
      ],
      [
        "news",
        "letter"
      ],
      [
        "c",
        "or"
      ],
      [
        "le",
        "ct"
      ],
      [
        "with",
        "in"
      ],
      [
        "up",
        "date"
      ],
      [
        "nt",
        "er"
      ],
      [
        "i",
        "mb"
      ],
      [
        "ard",
        "ing"
      ],
      [
        "imb",
        "ur"
      ],
      [
        "reach",
        "ing"
      ],
      [
        "er",
        "r"
      ],
      [
        "re",
        "imbur"
      ],
      [
        "poss",
        "ible"
      ],
      [
        "f",
        "u"
      ],
      [
        "d",
        "i"
      ],
      [
        "it",
        "i"
      ],
      [
        "method",
        "s"
      ],
      [
        "reimbur",
        "se"
      ],
      [
        "ow",
        "n"
      ],
      [
        "vi",
        "sit"
      ],
      [
        "R",
        "L"
      ],
      [
        "U",
        "RL"
      ],
      [
        "o",
        "o"
      ],
      [
        "ge",
        "ther"
      ],
      [
        "rece",
        "ive"
      ],
      [
        "err",
        "or"
      ],
      [
        "pe",
        "ct"
      ],
      [
        "reg",
        "arding"
      ],
      [
        "ation",
        "s"
      ],
      [
        "reimburse",
        "ment"
      ],
      [
        "wor",
        "k"
      ],
      [
        "comm",
        "it"
      ],
      [
        "in",
        "st"
      ],
      [
        "ction",
        "s"
      ],
      [
        "as",
        "k"
      ],
      [
        "p",
        "age"
      ],
      [
        "prompt",
        "ly"
      ],
      [
        "th",
        "ing"
      ],
      [
        "cont",
        "act"
      ],
      [
        "re",
        "qui"
      ],
      [
        "p",
        "at"
      ],
      [
        "re",
        "nt"
      ],
      [
        "sh",
        "ould"
      ],
      [
        "S",
        "hipping"
      ],
      [
        "of",
        "fer"
      ],
      [
        "be",
        "t"
      ],
      [
        "inst",
        "ru"
      ],
      [
        "an",
        "s"
      ],
      [
        "fu",
        "ll"
      ],
      [
        "pat",
        "ience"
      ],
      [
        "sit",
        "u"
      ],
      [
        "pri",
        "or"
      ],
      [
        "resol",
        "ving"
      ],
      [
        "t",
        "ake"
      ],
      [
        "plat",
        "form"
      ],
      [
        "ex",
        "pect"
      ],
      [
        "instru",
        "ctions"
      ],
      [
        "all",
        "ow"
      ],
      [
        "I",
        "nter"
      ],
      [
        "bet",
        "ter"
      ],
      [
        "na",
        "me"
      ],
      [
        "The",
        "y"
      ],
      [
        "log",
        "g"
      ],
      [
        "conven",
        "ience"
      ],
      [
        "v",
        "ant"
      ],
      [
        "Inter",
        "action"
      ],
      [
        "d",
        "own"
      ],
      [
        "P",
        "hone"
      ],
      [
        "commit",
        "ted"
      ],
      [
        "g",
        "ra"
      ],
      [
        "n",
        "o"
      ],
      [
        "at",
        "ure"
      ],
      [
        "i",
        "ent"
      ],
      [
        "ens",
        "uring"
      ],
      [
        "m",
        "at"
      ],
      [
        "iz",
        "ed"
      ],
      [
        "it",
        "s"
      ],
      [
        "item",
        "s"
      ],
      [
        "in",
        "to"
      ],
      [
        "ed",
        "it"
      ],
      [
        "We",
        "bsite"
      ],
      [
        "art",
        "ic"
      ],
      [
        "f",
        "ac"
      ],
      [
        "in",
        "te"
      ],
      [
        "g",
        "o"
      ],
      [
        "rece",
        "i"
      ],
      [
        "fi",
        "r"
      ],
      [
        "po",
        "log"
      ],
      [
        "inte",
        "rest"
      ],
      [
        "be",
        "st"
      ],
      [
        "Lo",
        "g"
      ],
      [
        "a",
        "polog"
      ],
      [
        "le",
        "vant"
      ],
      [
        "d",
        "ance"
      ],
      [
        "gui",
        "dance"
      ],
      [
        "on",
        "g"
      ],
      [
        "ar",
        "ri"
      ],
      [
        "op",
        "er"
      ],
      [
        "apolog",
        "ize"
      ],
      [
        "a",
        "p"
      ],
      [
        "per",
        "son"
      ],
      [
        "i",
        "th"
      ],
      [
        "t",
        "ain"
      ],
      [
        "W",
        "ith"
      ],
      [
        "fir",
        "m"
      ],
      [
        "val",
        "u"
      ],
      [
        "ter",
        "m"
      ],
      [
        "re",
        "n"
      ],
      [
        "mat",
        "ter"
      ],
      [
        "re",
        "levant"
      ],
      [
        "m",
        "a"
      ],
      [
        "C",
        "ance"
      ],
      [
        "prior",
        "ity"
      ],
      [
        "any",
        "thing"
      ],
      [
        "w",
        "ard"
      ],
      [
        "to",
        "gether"
      ],
      [
        "a",
        "st"
      ],
      [
        "w",
        "it"
      ],
      [
        "H",
        "ours"
      ],
      [
        "e",
        "red"
      ],
      [
        "ou",
        "s"
      ],
      [
        "c",
        "re"
      ],
      [
        "pro",
        "ce"
      ],
      [
        "i",
        "r"
      ],
      [
        "i",
        "al"
      ],
      [
        "ic",
        "h"
      ],
      [
        "ive",
        "ly"
      ],
      [
        "cl",
        "ick"
      ],
      [
        "comp",
        "any"
      ],
      [
        "wor",
        "d"
      ],
      [
        "th",
        "an"
      ],
      [
        "ou",
        "nt"
      ],
      [
        "In",
        "voice"
      ],
      [
        "Cance",
        "llation"
      ],
      [
        "wh",
        "ich"
      ],
      [
        "re",
        "view"
      ],
      [
        "F",
        "o"
      ],
      [
        "Fo",
        "llow"
      ],
      [
        "o",
        "ci"
      ],
      [
        "Ch",
        "at"
      ],
      [
        "r",
        "ing"
      ],
      [
        "use",
        "d"
      ],
      [
        "ass",
        "oci"
      ],
      [
        "s",
        "ha"
      ],
      [
        "associ",
        "ated"
      ],
      [
        "po",
        "lic"
      ],
      [
        "ass",
        "word"
      ],
      [
        "y",
        "ing"
      ],
      [
        "resol",
        "ve"
      ],
      [
        "el",
        "se"
      ],
      [
        "th",
        "or"
      ],
      [
        "L",
        "ive"
      ],
      [
        "us",
        "ing"
      ],
      [
        "fe",
        "ature"
      ],
      [
        "a",
        "ve"
      ],
      [
        "st",
        "im"
      ],
      [
        "Na",
        "me"
      ],
      [
        "fac",
        "ing"
      ],
      [
        "ex",
        "p"
      ],
      [
        "P",
        "ay"
      ],
      [
        "Add",
        "ress"
      ],
      [
        "proce",
        "ed"
      ],
      [
        "l",
        "ist"
      ],
      [
        "con",
        "d"
      ],
      [
        "e",
        "stim"
      ],
      [
        "in",
        "convenience"
      ],
      [
        "De",
        "livery"
      ],
      [
        "he",
        "ar"
      ],
      [
        "wit",
        "ch"
      ],
      [
        "m",
        "it"
      ],
      [
        "u",
        "st"
      ],
      [
        "P",
        "er"
      ],
      [
        "cl",
        "u"
      ],
      [
        "d",
        "ay"
      ],
      [
        "change",
        "s"
      ],
      [
        "qu",
        "ick"
      ],
      [
        "the",
        "m"
      ],
      [
        "ent",
        "ial"
      ],
      [
        "di",
        "rect"
      ],
      [
        "p",
        "ort"
      ],
      [
        "me",
        "mber"
      ],
      [
        "lo",
        "ad"
      ],
      [
        "t",
        "y"
      ],
      [
        "service",
        "s"
      ],
      [
        "\"",
        "{{"
      ],
      [
        "loc",
        "ate"
      ],
      [
        "c",
        "red"
      ],
      [
        "comm",
        "end"
      ],
      [
        "import",
        "ant"
      ],
      [
        "product",
        "s"
      ],
      [
        "Pro",
        "file"
      ],
      [
        "artic",
        "le"
      ],
      [
        "Na",
        "vigate"
      ],
      [
        "p",
        "en"
      ],
      [
        "re",
        "t"
      ],
      [
        "st",
        "i"
      ],
      [
        "ap",
        "pro"
      ],
      [
        "ce",
        "p"
      ],
      [
        "in",
        "ve"
      ],
      [
        "a",
        "im"
      ],
      [
        "b",
        "ate"
      ],
      [
        "inve",
        "sti"
      ],
      [
        "gra",
        "de"
      ],
      [
        "P",
        "I"
      ],
      [
        "re",
        "port"
      ],
      [
        "hi",
        "le"
      ],
      [
        "li",
        "ve"
      ],
      [
        "C",
        "ould"
      ],
      [
        "r",
        "ation"
      ],
      [
        "PI",
        "N"
      ],
      [
        "ac",
        "cep"
      ],
      [
        "re",
        "s"
      ],
      [
        "in",
        "clu"
      ],
      [
        "v",
        "ent"
      ],
      [
        "cur",
        "rent"
      ],
      [
        "i",
        "d"
      ],
      [
        "re",
        "bate"
      ],
      [
        "ine",
        "ss"
      ],
      [
        "C",
        "l"
      ],
      [
        "H",
        "e"
      ],
      [
        "e",
        "ar"
      ],
      [
        "b",
        "us"
      ],
      [
        "bus",
        "iness"
      ],
      [
        "Cl",
        "ick"
      ],
      [
        "p",
        "assword"
      ],
      [
        "full",
        "y"
      ],
      [
        "cor",
        "rect"
      ],
      [
        "down",
        "load"
      ],
      [
        "re",
        "co"
      ],
      [
        "valu",
        "able"
      ],
      [
        "need",
        "s"
      ],
      [
        "g",
        "ot"
      ],
      [
        "ac",
        "y"
      ],
      [
        "}}",
        "\""
      ],
      [
        "ch",
        "at"
      ],
      [
        "iti",
        "ate"
      ],
      [
        "c",
        "a"
      ],
      [
        "sub",
        "mit"
      ],
      [
        "ri",
        "e"
      ],
      [
        "i",
        "es"
      ],
      [
        "re",
        "commend"
      ],
      [
        "check",
        "ing"
      ],
      [
        "ke",
        "y"
      ],
      [
        "b",
        "ut"
      ],
      [
        "situ",
        "ation"
      ],
      [
        "i",
        "od"
      ],
      [
        "on",
        "line"
      ],
      [
        "tr",
        "ans"
      ],
      [
        "requi",
        "re"
      ],
      [
        "T",
        "r"
      ],
      [
        "v",
        "ed"
      ],
      [
        "oper",
        "ation"
      ],
      [
        "to",
        "p"
      ],
      [
        "val",
        "ue"
      ],
      [
        "ut",
        "most"
      ],
      [
        "ret",
        "rie"
      ],
      [
        "cha",
        "rges"
      ],
      [
        "cl",
        "aim"
      ],
      [
        "investi",
        "gate"
      ],
      [
        "co",
        "operation"
      ],
      [
        "im",
        "pro"
      ],
      [
        "f",
        "ul"
      ],
      [
        "wh",
        "en"
      ],
      [
        "C",
        "on"
      ],
      [
        "c",
        "ure"
      ],
      [
        "a",
        "k"
      ],
      [
        "g",
        "in"
      ],
      [
        "re",
        "at"
      ],
      [
        "se",
        "cure"
      ],
      [
        "f",
        "und"
      ],
      [
        "con",
        "firm"
      ],
      [
        "S",
        "et"
      ],
      [
        "F",
        "or"
      ],
      [
        "payment",
        "s"
      ],
      [
        "one",
        "y"
      ],
      [
        "provide",
        "d"
      ],
      [
        "m",
        "i"
      ],
      [
        "Set",
        "tings"
      ],
      [
        "j",
        "o"
      ],
      [
        "look",
        "ing"
      ],
      [
        "c",
        "are"
      ],
      [
        "g",
        "reat"
      ],
      [
        "oo",
        "se"
      ],
      [
        "re",
        "set"
      ],
      [
        "person",
        "al"
      ],
      [
        "con",
        "ne"
      ],
      [
        "He",
        "re"
      ],
      [
        "me",
        "ss"
      ],
      [
        "sol",
        "ution"
      ],
      [
        "import",
        "ance"
      ],
      [
        "i",
        "ous"
      ],
      [
        "m",
        "oney"
      ],
      [
        "mess",
        "age"
      ],
      [
        "e",
        "li"
      ],
      [
        "A",
        "pp"
      ],
      [
        "eli",
        "g"
      ],
      [
        "T",
        "here"
      ],
      [
        "ref",
        "er"
      ],
      [
        "cancel",
        "ing"
      ],
      [
        "sha",
        "re"
      ],
      [
        "conne",
        "ct"
      ],
      [
        "u",
        "thor"
      ],
      [
        "reg",
        "ist"
      ],
      [
        "complete",
        "ly"
      ],
      [
        "set",
        "tings"
      ],
      [
        "t",
        "en"
      ],
      [
        "ri",
        "ght"
      ],
      [
        "U",
        "p"
      ],
      [
        "ent",
        "er"
      ],
      [
        "Re",
        "member"
      ],
      [
        "ack",
        "ing"
      ],
      [
        "cur",
        "ity"
      ],
      [
        "ar",
        "ted"
      ],
      [
        "understand",
        "ing"
      ],
      [
        "estim",
        "ated"
      ],
      [
        "to",
        "re"
      ],
      [
        "ain",
        "t"
      ],
      [
        "mo",
        "dif"
      ],
      [
        "ren",
        "ce"
      ],
      [
        "S",
        "e"
      ],
      [
        "fe",
        "rence"
      ],
      [
        "s",
        "y"
      ],
      [
        "st",
        "arted"
      ],
      [
        "comp",
        "l"
      ],
      [
        "up",
        "d"
      ],
      [
        "H",
        "ow"
      ],
      [
        "s",
        "witch"
      ],
      [
        "compl",
        "aint"
      ],
      [
        "C",
        "o"
      ],
      [
        "subscri",
        "ption"
      ],
      [
        "logg",
        "ed"
      ],
      [
        "jo",
        "y"
      ],
      [
        "ste",
        "m"
      ],
      [
        "sy",
        "stem"
      ],
      [
        "elig",
        "ible"
      ],
      [
        "C",
        "ha"
      ],
      [
        "problem",
        "s"
      ],
      [
        "ef",
        "fect"
      ],
      [
        "Cha",
        "rges"
      ],
      [
        "c",
        "ard"
      ],
      [
        "se",
        "curity"
      ],
      [
        "impro",
        "ve"
      ],
      [
        "si",
        "m"
      ],
      [
        "at",
        "ive"
      ],
      [
        "ru",
        "st"
      ],
      [
        "ag",
        "ent"
      ],
      [
        "a",
        "ce"
      ],
      [
        "through",
        "out"
      ],
      [
        "se",
        "lect"
      ],
      [
        "Re",
        "fund"
      ],
      [
        "f",
        "rust"
      ],
      [
        "S",
        "t"
      ],
      [
        "see",
        "king"
      ],
      [
        "c",
        "ase"
      ],
      [
        "ca",
        "used"
      ],
      [
        "co",
        "de"
      ],
      [
        "w",
        "hile"
      ],
      [
        "in",
        "ation"
      ],
      [
        "en",
        "ef"
      ],
      [
        "resol",
        "ution"
      ],
      [
        "ind",
        "ly"
      ],
      [
        "de",
        "si"
      ],
      [
        "encount",
        "ered"
      ],
      [
        "arri",
        "ve"
      ],
      [
        "ward",
        "s"
      ],
      [
        "enef",
        "its"
      ],
      [
        "ment",
        "s"
      ],
      [
        "p",
        "refer"
      ],
      [
        "inclu",
        "ding"
      ],
      [
        "cont",
        "ac"
      ],
      [
        "E",
        "x"
      ],
      [
        "en",
        "able"
      ],
      [
        "rou",
        "ble"
      ],
      [
        "comp",
        "ens"
      ],
      [
        "pri",
        "ate"
      ],
      [
        "appro",
        "priate"
      ],
      [
        "F",
        "e"
      ],
      [
        "l",
        "ab"
      ],
      [
        "b",
        "enefits"
      ],
      [
        "to",
        "wards"
      ],
      [
        "o",
        "l"
      ],
      [
        "provi",
        "ding"
      ],
      [
        "not",
        "ify"
      ],
      [
        "sh",
        "o"
      ],
      [
        "m",
        "ind"
      ],
      [
        "e",
        "led"
      ],
      [
        "lab",
        "eled"
      ],
      [
        "t",
        "rouble"
      ],
      [
        "Lo",
        "c"
      ],
      [
        "re",
        "mo"
      ],
      [
        "i",
        "led"
      ],
      [
        "App",
        "le"
      ],
      [
        "me",
        "et"
      ],
      [
        "Up",
        "grade"
      ],
      [
        "a",
        "iled"
      ],
      [
        "direct",
        "ly"
      ],
      [
        "polic",
        "y"
      ],
      [
        "s",
        "ent"
      ],
      [
        "ght",
        "s"
      ],
      [
        "ten",
        "tion"
      ],
      [
        "de",
        "li"
      ],
      [
        "s",
        "hi"
      ],
      [
        "op",
        "en"
      ],
      [
        "r",
        "ange"
      ],
      [
        "ef",
        "fic"
      ],
      [
        "stand",
        "ard"
      ],
      [
        "Per",
        "son"
      ],
      [
        "}}",
        "?"
      ],
      [
        "t",
        "s"
      ],
      [
        "id",
        "ent"
      ],
      [
        "det",
        "ailed"
      ],
      [
        "b",
        "ring"
      ],
      [
        "effic",
        "ient"
      ],
      [
        "ne",
        "y"
      ],
      [
        "A",
        "m"
      ]
    ]
  }
}